// Generado automaticamente por Python
const unsigned char brain_v2_tflite[] = {
0x1c, 0x00, 0x00, 0x00, 0x54, 0x46, 0x4c, 0x33, 0x14, 0x00, 0x20, 0x00, 
0x1c, 0x00, 0x18, 0x00, 0x14, 0x00, 0x10, 0x00, 0x0c, 0x00, 0x00, 0x00, 
0x08, 0x00, 0x04, 0x00, 0x14, 0x00, 0x00, 0x00, 0x1c, 0x00, 0x00, 0x00, 
0x8c, 0x00, 0x00, 0x00, 0xe4, 0x00, 0x00, 0x00, 0xa4, 0x0a, 0x00, 0x00, 
0xb4, 0x0a, 0x00, 0x00, 0xa0, 0x11, 0x00, 0x00, 0x03, 0x00, 0x00, 0x00, 
0x01, 0x00, 0x00, 0x00, 0x04, 0x00, 0x00, 0x00, 0x0a, 0xf5, 0xff, 0xff, 
0x0c, 0x00, 0x00, 0x00, 0x1c, 0x00, 0x00, 0x00, 0x3c, 0x00, 0x00, 0x00, 
0x0f, 0x00, 0x00, 0x00, 0x73, 0x65, 0x72, 0x76, 0x69, 0x6e, 0x67, 0x5f, 
0x64, 0x65, 0x66, 0x61, 0x75, 0x6c, 0x74, 0x00, 0x01, 0x00, 0x00, 0x00, 
0x04, 0x00, 0x00, 0x00, 0x90, 0xff, 0xff, 0xff, 0x0d, 0x00, 0x00, 0x00, 
0x04, 0x00, 0x00, 0x00, 0x08, 0x00, 0x00, 0x00, 0x6f, 0x75, 0x74, 0x70, 
0x75, 0x74, 0x5f, 0x30, 0x00, 0x00, 0x00, 0x00, 0x01, 0x00, 0x00, 0x00, 
0x04, 0x00, 0x00, 0x00, 0x5e, 0xf6, 0xff, 0xff, 0x04, 0x00, 0x00, 0x00, 
0x0e, 0x00, 0x00, 0x00, 0x6b, 0x65, 0x72, 0x61, 0x73, 0x5f, 0x74, 0x65, 
0x6e, 0x73, 0x6f, 0x72, 0x5f, 0x34, 0x00, 0x00, 0x02, 0x00, 0x00, 0x00, 
0x34, 0x00, 0x00, 0x00, 0x04, 0x00, 0x00, 0x00, 0xdc, 0xff, 0xff, 0xff, 
0x10, 0x00, 0x00, 0x00, 0x04, 0x00, 0x00, 0x00, 0x13, 0x00, 0x00, 0x00, 
0x43, 0x4f, 0x4e, 0x56, 0x45, 0x52, 0x53, 0x49, 0x4f, 0x4e, 0x5f, 0x4d, 
0x45, 0x54, 0x41, 0x44, 0x41, 0x54, 0x41, 0x00, 0x08, 0x00, 0x0c, 0x00, 
0x08, 0x00, 0x04, 0x00, 0x08, 0x00, 0x00, 0x00, 0x0f, 0x00, 0x00, 0x00, 
0x04, 0x00, 0x00, 0x00, 0x13, 0x00, 0x00, 0x00, 0x6d, 0x69, 0x6e, 0x5f, 
0x72, 0x75, 0x6e, 0x74, 0x69, 0x6d, 0x65, 0x5f, 0x76, 0x65, 0x72, 0x73, 
0x69, 0x6f, 0x6e, 0x00, 0x11, 0x00, 0x00, 0x00, 0xbc, 0x09, 0x00, 0x00, 
0xb4, 0x09, 0x00, 0x00, 0x24, 0x09, 0x00, 0x00, 0x0c, 0x07, 0x00, 0x00, 
0xfc, 0x02, 0x00, 0x00, 0xdc, 0x02, 0x00, 0x00, 0xac, 0x02, 0x00, 0x00, 
0x5c, 0x02, 0x00, 0x00, 0x0c, 0x02, 0x00, 0x00, 0xbc, 0x00, 0x00, 0x00, 
0xb4, 0x00, 0x00, 0x00, 0xac, 0x00, 0x00, 0x00, 0xa4, 0x00, 0x00, 0x00, 
0x9c, 0x00, 0x00, 0x00, 0x94, 0x00, 0x00, 0x00, 0x74, 0x00, 0x00, 0x00, 
0x04, 0x00, 0x00, 0x00, 0x1e, 0xf7, 0xff, 0xff, 0x04, 0x00, 0x00, 0x00, 
0x60, 0x00, 0x00, 0x00, 0x0c, 0x00, 0x00, 0x00, 0x08, 0x00, 0x0e, 0x00, 
0x08, 0x00, 0x04, 0x00, 0x08, 0x00, 0x00, 0x00, 0x10, 0x00, 0x00, 0x00, 
0x28, 0x00, 0x00, 0x00, 0x00, 0x00, 0x06, 0x00, 0x08, 0x00, 0x04, 0x00, 
0x06, 0x00, 0x00, 0x00, 0x04, 0x00, 0x00, 0x00, 0x01, 0x00, 0x00, 0x00, 
0xea, 0x03, 0x00, 0x00, 0x0c, 0x00, 0x18, 0x00, 0x14, 0x00, 0x10, 0x00, 
0x0c, 0x00, 0x04, 0x00, 0x0c, 0x00, 0x00, 0x00, 0x07, 0x50, 0xe5, 0x2a, 
0x28, 0x37, 0x3b, 0xcf, 0x02, 0x00, 0x00, 0x00, 0x02, 0x00, 0x00, 0x00, 
0x04, 0x00, 0x00, 0x00, 0x06, 0x00, 0x00, 0x00, 0x32, 0x2e, 0x31, 0x39, 
0x2e, 0x30, 0x00, 0x00, 0x8a, 0xf7, 0xff, 0xff, 0x04, 0x00, 0x00, 0x00, 
0x10, 0x00, 0x00, 0x00, 0x31, 0x2e, 0x31, 0x34, 0x2e, 0x30, 0x00, 0x00, 
0x00, 0x00, 0x00, 0x00, 0x00, 0x00, 0x00, 0x00, 0x44, 0xf0, 0xff, 0xff, 
0x48, 0xf0, 0xff, 0xff, 0x4c, 0xf0, 0xff, 0xff, 0x50, 0xf0, 0xff, 0xff, 
0x54, 0xf0, 0xff, 0xff, 0xba, 0xf7, 0xff, 0xff, 0x04, 0x00, 0x00, 0x00, 
0x40, 0x01, 0x00, 0x00, 0x4c, 0x0d, 0x03, 0x3e, 0x18, 0x3c, 0x22, 0x3e, 
0x4c, 0x6f, 0x1c, 0x3e, 0x89, 0xe1, 0x86, 0xbe, 0xb8, 0x59, 0xdf, 0xbe, 
0x98, 0x58, 0x3d, 0xbe, 0xde, 0x7a, 0xb5, 0x3e, 0x7b, 0x7d, 0xf8, 0xbe, 
0x29, 0xa2, 0x4b, 0x3e, 0x73, 0xe8, 0x9d, 0x3d, 0xa8, 0x28, 0x5e, 0xbd, 
0xd6, 0xb9, 0xdb, 0x3e, 0x38, 0x43, 0x98, 0xbe, 0x09, 0xb5, 0xde, 0xbe, 
0x7a, 0xab, 0xa7, 0xbe, 0x1a, 0xfd, 0x06, 0xbf, 0x3e, 0x05, 0xe8, 0x3e, 
0x20, 0xdc, 0x3a, 0x3e, 0x08, 0xfc, 0xfc, 0xbe, 0xe0, 0xb5, 0xa0, 0x3c, 
0xb0, 0xbd, 0x18, 0x3e, 0x58, 0x5a, 0x6d, 0xbe, 0xa4, 0x07, 0x08, 0x3e, 
0xca, 0xdb, 0x8d, 0xbe, 0x68, 0x75, 0xaa, 0x3d, 0x44, 0x0f, 0x14, 0x3e, 
0x6b, 0x6c, 0xf0, 0xbc, 0xe8, 0xa9, 0x18, 0xbe, 0x8b, 0x40, 0xed, 0xbd, 
0xb5, 0x18, 0x12, 0x3f, 0x6b, 0xc3, 0xce, 0x3e, 0xbe, 0xad, 0x9f, 0x3e, 
0x9d, 0x80, 0xf3, 0x3e, 0xd2, 0x96, 0x5e, 0x3c, 0xa2, 0x5b, 0x91, 0x3e, 
0x1f, 0x6a, 0x8f, 0xbf, 0xeb, 0x1e, 0x01, 0x3f, 0x7d, 0x92, 0xb1, 0xbe, 
0xec, 0x6c, 0xc4, 0x3d, 0xf8, 0x17, 0x0f, 0x3e, 0x32, 0x9d, 0x8c, 0x3e, 
0xf0, 0x99, 0x01, 0x3d, 0xd8, 0xb3, 0x4d, 0x3e, 0x44, 0x97, 0xc0, 0xbe, 
0x40, 0x26, 0x01, 0xbc, 0xb6, 0x9b, 0x8b, 0x3e, 0x3a, 0x80, 0xf9, 0xbe, 
0x4c, 0x10, 0x2c, 0xbe, 0x22, 0x7d, 0xf7, 0xbe, 0xd6, 0x34, 0xcd, 0xbe, 
0xcd, 0x2c, 0x7d, 0xbf, 0x63, 0xc2, 0xaa, 0x3e, 0x42, 0x44, 0xfb, 0x3e, 
0xd8, 0x85, 0x18, 0xba, 0xc6, 0x0f, 0x2a, 0x3d, 0xfb, 0xf4, 0x85, 0xbe, 
0x87, 0xaa, 0x62, 0x3d, 0xc3, 0x82, 0x31, 0x3d, 0x86, 0x32, 0x06, 0xbf, 
0x40, 0x5a, 0xcf, 0x3e, 0xba, 0x0d, 0xd3, 0x3d, 0x23, 0x8b, 0x1a, 0x3e, 
0x2b, 0x8d, 0x19, 0xbe, 0x23, 0x01, 0xac, 0x3e, 0xc1, 0xe3, 0x02, 0xbf, 
0x89, 0x24, 0x0a, 0x3d, 0xc5, 0x7b, 0x2b, 0xbf, 0xb7, 0x6d, 0x6f, 0xbe, 
0x12, 0x7f, 0xfc, 0x3e, 0x55, 0x74, 0x83, 0x3e, 0xfe, 0xff, 0x60, 0x3d, 
0xa2, 0x7f, 0xab, 0xbd, 0x50, 0x4e, 0x9d, 0xbd, 0x40, 0xff, 0x9e, 0x3e, 
0x9b, 0xee, 0xb3, 0xbd, 0xc4, 0xa0, 0xe8, 0x3e, 0x18, 0xd4, 0xb8, 0x3e, 
0x77, 0x27, 0xb8, 0x3d, 0x7b, 0xee, 0x14, 0x3c, 0x3f, 0xf2, 0x1a, 0xbf, 
0x06, 0xf9, 0xff, 0xff, 0x04, 0x00, 0x00, 0x00, 0x40, 0x00, 0x00, 0x00, 
0x00, 0x00, 0x00, 0x00, 0xe6, 0x26, 0x03, 0xbe, 0x00, 0x00, 0x00, 0x00, 
0x00, 0x00, 0x00, 0x00, 0x00, 0x00, 0x00, 0x00, 0xfb, 0xa4, 0x84, 0xbe, 
0x94, 0xcd, 0x94, 0x3d, 0xea, 0x34, 0x99, 0x3d, 0x00, 0x00, 0x00, 0x00, 
0x00, 0x00, 0x00, 0x00, 0x8b, 0x2a, 0x9b, 0x3d, 0x56, 0x18, 0x7e, 0x3d, 
0xf2, 0x38, 0xc8, 0x3e, 0xb1, 0x75, 0x43, 0xbe, 0x16, 0x0d, 0xd7, 0xbd, 
0xf0, 0x88, 0xf6, 0x3d, 0x52, 0xf9, 0xff, 0xff, 0x04, 0x00, 0x00, 0x00, 
0x40, 0x00, 0x00, 0x00, 0x00, 0x00, 0x00, 0x00, 0x92, 0x3a, 0x39, 0xbe, 
0xac, 0xb1, 0xd6, 0x3c, 0x5f, 0x44, 0x27, 0x3e, 0x00, 0x00, 0x00, 0x00, 
0xff, 0xdc, 0xba, 0xbc, 0x3f, 0xa3, 0x92, 0xbd, 0x21, 0xec, 0xdd, 0xbd, 
0x8b, 0x40, 0xc5, 0xbd, 0x00, 0x00, 0x00, 0x00, 0x00, 0x00, 0x00, 0x00, 
0x00, 0x00, 0x00, 0x00, 0x00, 0x00, 0x00, 0x00, 0x00, 0x00, 0x00, 0x00, 
0xe1, 0xb0, 0x92, 0xbc, 0x34, 0x68, 0x06, 0x3f, 0x9e, 0xf9, 0xff, 0xff, 
0x04, 0x00, 0x00, 0x00, 0x20, 0x00, 0x00, 0x00, 0xbc, 0x76, 0x2d, 0xbc, 
0xb9, 0x24, 0xaf, 0xbd, 0x37, 0x76, 0xab, 0x3c, 0x12, 0x06, 0xfe, 0xbc, 
0x0a, 0x4a, 0x5e, 0x3c, 0x28, 0x43, 0x5c, 0x3e, 0x91, 0xf5, 0x18, 0xbd, 
0x12, 0x0a, 0xec, 0xbd, 0xca, 0xf9, 0xff, 0xff, 0x04, 0x00, 0x00, 0x00, 
0x10, 0x00, 0x00, 0x00, 0xc7, 0xce, 0x73, 0xbe, 0x33, 0x10, 0xe0, 0xbf, 
0x3b, 0x50, 0x8a, 0x3f, 0x4d, 0x7a, 0xd1, 0x3c, 0xe6, 0xf9, 0xff, 0xff, 
0x04, 0x00, 0x00, 0x00, 0x00, 0x04, 0x00, 0x00, 0xc4, 0x61, 0xa8, 0xbe, 
0xf8, 0xaa, 0x35, 0xbd, 0xe5, 0x48, 0xc0, 0x3e, 0x66, 0xaf, 0x7e, 0xbe, 
0xe4, 0xc5, 0xf3, 0x3d, 0x30, 0x0b, 0xfa, 0x3c, 0xa0, 0x74, 0x25, 0xbe, 
0x4a, 0xcd, 0x7c, 0x3e, 0xc9, 0x6d, 0xd7, 0x3e, 0xf3, 0x54, 0xd9, 0x3e, 
0x58, 0x59, 0x9a, 0xbe, 0x94, 0xff, 0xbe, 0xbe, 0xc0, 0x7d, 0xdc, 0xbb, 
0xbe, 0xaf, 0xbc, 0xbe, 0x7a, 0x5f, 0x54, 0x3e, 0xa0, 0x63, 0x46, 0xbe, 
0xe5, 0x7e, 0x90, 0xbe, 0x79, 0x53, 0x99, 0x3e, 0xda, 0xdf, 0x50, 0x3e, 
0xa7, 0x9f, 0x77, 0xbe, 0x7c, 0xd8, 0xdd, 0xbd, 0x6f, 0xa2, 0x78, 0x3e, 
0x97, 0x20, 0x00, 0x3d, 0x76, 0x2b, 0x04, 0xbe, 0xe4, 0xc2, 0xac, 0xbd, 
0xec, 0xa6, 0xbe, 0x3d, 0xd5, 0x88, 0x62, 0xbb, 0x03, 0x0e, 0xf0, 0xbe, 
0x21, 0xf7, 0xae, 0xbe, 0x36, 0x64, 0x34, 0x3e, 0x84, 0x58, 0x8e, 0x3e, 
0xec, 0x76, 0xd0, 0xbf, 0xff, 0xee, 0x7e, 0xbe, 0x34, 0x5f, 0x4d, 0xbe, 
0xa4, 0xc8, 0xd8, 0xbe, 0xf7, 0x3a, 0x85, 0x3e, 0xe4, 0x93, 0x14, 0xbe, 
0xbd, 0x60, 0x21, 0xbc, 0xf6, 0x28, 0x66, 0x3e, 0xa8, 0x7d, 0x55, 0xbe, 
0x34, 0xa9, 0x2c, 0xbe, 0x47, 0x8e, 0xa5, 0x3e, 0x46, 0xc5, 0x37, 0x3f, 
0xf8, 0x00, 0xc0, 0xbd, 0xe1, 0x60, 0x14, 0x3e, 0xd2, 0x0e, 0x5f, 0xbe, 
0xa5, 0xac, 0xfc, 0xbd, 0x4c, 0xf5, 0x95, 0xbd, 0x5a, 0x54, 0x68, 0x3e, 
0x51, 0xdb, 0xfe, 0xbd, 0xb6, 0x99, 0xcb, 0xbe, 0xf1, 0xbe, 0x8b, 0x3e, 
0xcb, 0x93, 0x4d, 0xbe, 0xca, 0xf9, 0x1c, 0xbe, 0xc1, 0x29, 0x9c, 0x3e, 
0x24, 0xb0, 0xff, 0x3e, 0x92, 0x04, 0x13, 0xbe, 0x64, 0xcf, 0x9b, 0x3d, 
0x78, 0xd9, 0x0f, 0x3f, 0x8f, 0xe1, 0x21, 0x3d, 0x19, 0x07, 0xb1, 0x3e, 
0x07, 0xab, 0xf6, 0xbd, 0x7a, 0xc5, 0x92, 0x3d, 0x4c, 0xe5, 0x40, 0x3e, 
0x95, 0x6e, 0xd2, 0xbe, 0x76, 0x91, 0xb2, 0xbe, 0x15, 0x1a, 0x98, 0x3e, 
0xe0, 0xf9, 0x11, 0x3d, 0x41, 0x9c, 0x87, 0x3e, 0x1d, 0x21, 0xd2, 0xbe, 
0xb6, 0xc1, 0x7c, 0xbe, 0x14, 0x47, 0xab, 0x3d, 0xe6, 0x1a, 0x10, 0xbe, 
0xa6, 0x3f, 0x6b, 0xbe, 0x10, 0x26, 0x8f, 0xbc, 0x83, 0x46, 0xa3, 0x3e, 
0x74, 0x94, 0xb5, 0xbe, 0xf4, 0x16, 0xa8, 0x3d, 0xa0, 0x1e, 0xa4, 0xbe, 
0x87, 0xd1, 0xc3, 0xbe, 0x06, 0xf6, 0x0d, 0xbe, 0x9b, 0x72, 0xf8, 0xbd, 
0xb7, 0x9f, 0x82, 0x3e, 0xdf, 0xc5, 0x73, 0xbe, 0x64, 0x40, 0xd4, 0x3d, 
0x75, 0x2d, 0xcb, 0x3e, 0x33, 0xca, 0xa6, 0x3e, 0x2a, 0xbc, 0x94, 0xbe, 
0xcf, 0xcb, 0xd1, 0xbe, 0xe0, 0x0e, 0x55, 0xbe, 0x5d, 0x1b, 0x64, 0xbe, 
0x40, 0xf0, 0x5c, 0x3e, 0x5f, 0x8a, 0xbd, 0x3d, 0x87, 0x81, 0x8f, 0x3e, 
0x26, 0x8b, 0xe2, 0xbe, 0x94, 0xa4, 0xa1, 0xbf, 0x54, 0xf7, 0xe5, 0x3d, 
0x1b, 0x11, 0xb8, 0x3e, 0xe0, 0x6c, 0xba, 0xbd, 0x38, 0x5c, 0x7d, 0xbd, 
0x8e, 0x05, 0x4d, 0x3e, 0x90, 0x72, 0x89, 0xbe, 0x4f, 0x12, 0xa5, 0xbe, 
0x57, 0x4a, 0x34, 0x3e, 0xb0, 0xb7, 0x4f, 0x3d, 0x34, 0xf3, 0xa5, 0xbd, 
0x29, 0xf6, 0x1e, 0x3e, 0x5d, 0xf7, 0x47, 0xbe, 0x38, 0xbc, 0x09, 0xbe, 
0xfa, 0x33, 0xd8, 0x3e, 0x58, 0x42, 0x9b, 0xbe, 0xbc, 0xeb, 0x01, 0x3d, 
0xaf, 0xce, 0xa1, 0x3e, 0xac, 0xad, 0xb8, 0x3d, 0x69, 0x74, 0xdc, 0xbe, 
0xf0, 0xae, 0x02, 0xbe, 0xbb, 0xc8, 0x99, 0x3e, 0xfa, 0x53, 0x2d, 0x3e, 
0x69, 0x60, 0xb9, 0xbc, 0xbc, 0x37, 0xef, 0xbe, 0x7a, 0xa8, 0xaa, 0xbe, 
0x3e, 0xbb, 0x3b, 0x3e, 0x26, 0xfa, 0xa6, 0x3c, 0x3c, 0x22, 0x3f, 0xbe, 
0x1b, 0x1d, 0xf8, 0x3e, 0xa0, 0x5f, 0x05, 0x3f, 0xa8, 0x2f, 0xc4, 0x3e, 
0x0b, 0xd5, 0xdc, 0x3e, 0x66, 0xa6, 0x17, 0x3e, 0x34, 0x4b, 0x62, 0x3e, 
0xd4, 0xd3, 0xe3, 0x3d, 0x10, 0xe6, 0x81, 0xbc, 0x87, 0x89, 0x9f, 0x3e, 
0x9e, 0xc2, 0x80, 0xbf, 0x28, 0x53, 0xc4, 0xbe, 0x59, 0x6a, 0xab, 0x3d, 
0x39, 0x10, 0xa6, 0x3e, 0x4d, 0xa7, 0x8b, 0x3e, 0xa9, 0xae, 0x95, 0xbd, 
0xfa, 0xe9, 0xcd, 0xbe, 0x6a, 0x60, 0x12, 0x3f, 0xa1, 0x82, 0xe7, 0x3e, 
0x20, 0xf9, 0xdd, 0x3d, 0xcb, 0x4b, 0x93, 0x3e, 0xc6, 0x1c, 0x01, 0x3e, 
0x84, 0xac, 0xc2, 0xbe, 0x50, 0xdd, 0x4d, 0x3d, 0x74, 0x14, 0xa2, 0x3d, 
0x55, 0x1a, 0xae, 0x3e, 0x4c, 0x3f, 0x92, 0x3d, 0x3b, 0xa2, 0xd7, 0xbe, 
0x64, 0xd0, 0x26, 0xbe, 0xd8, 0x80, 0x80, 0x3d, 0x04, 0x89, 0xdb, 0xbe, 
0xc5, 0x7e, 0xd3, 0x3e, 0x72, 0x54, 0x4d, 0x3e, 0x72, 0x61, 0x04, 0x3e, 
0x6b, 0xf4, 0x98, 0xbe, 0x8f, 0xcf, 0x63, 0xbe, 0xee, 0xcc, 0x98, 0xbe, 
0x8e, 0xbd, 0x5a, 0x3e, 0x21, 0x07, 0xa8, 0x3e, 0x68, 0x5e, 0x61, 0xbd, 
0x82, 0x01, 0x35, 0x3e, 0x76, 0xeb, 0x38, 0x3e, 0x90, 0xa3, 0xcb, 0xbe, 
0xfc, 0x6e, 0xb0, 0xbe, 0x9e, 0xb7, 0x75, 0x3e, 0x64, 0xd2, 0x36, 0xbe, 
0xa9, 0x37, 0xd8, 0xbe, 0x6e, 0x4d, 0x05, 0xbe, 0x20, 0xb2, 0xb1, 0x3c, 
0x12, 0x11, 0x27, 0x3e, 0x40, 0xb1, 0xfe, 0x3b, 0x70, 0x0e, 0x8c, 0xbe, 
0x9b, 0x90, 0xdb, 0xbe, 0xbc, 0x67, 0xfa, 0x3d, 0x40, 0x20, 0x1a, 0xbe, 
0x9f, 0x16, 0x9b, 0x3e, 0x6c, 0x93, 0x63, 0xbe, 0x14, 0x11, 0xdd, 0x3d, 
0x6c, 0x5f, 0x8b, 0x3d, 0x16, 0xa5, 0x82, 0xbe, 0x90, 0x1f, 0xaa, 0xbe, 
0x65, 0x05, 0xb0, 0x3e, 0x13, 0x58, 0xcf, 0x3e, 0xc8, 0xfe, 0x03, 0x3d, 
0x49, 0x40, 0x95, 0x3e, 0xb4, 0x03, 0xe8, 0x3d, 0x97, 0x21, 0x88, 0x3e, 
0xb9, 0x6f, 0x77, 0xbe, 0x85, 0x46, 0xbe, 0x3e, 0x42, 0xd2, 0x30, 0x3e, 
0x5c, 0x42, 0xa2, 0xbd, 0x76, 0xc8, 0x3d, 0x3e, 0x5e, 0x77, 0x9c, 0xbe, 
0x7e, 0x3c, 0x1b, 0x3e, 0x50, 0x91, 0x0c, 0x3d, 0xde, 0x03, 0xb7, 0xbe, 
0xbc, 0x17, 0xd4, 0xbe, 0x36, 0xda, 0x20, 0xbe, 0x5a, 0xb8, 0x54, 0x3e, 
0x84, 0xf3, 0xb5, 0x3d, 0x41, 0xbc, 0xa6, 0x3e, 0x0c, 0xbd, 0x95, 0x3d, 
0xba, 0xa4, 0x92, 0xbe, 0x80, 0xb7, 0x1c, 0x3c, 0x3a, 0x49, 0x7f, 0xbe, 
0x76, 0xa9, 0x24, 0xbe, 0xa2, 0x53, 0x90, 0xbe, 0x8c, 0x2e, 0xcd, 0xbd, 
0xc4, 0x9d, 0xc6, 0xbd, 0x62, 0x03, 0x26, 0xbe, 0x38, 0xea, 0x2b, 0xbd, 
0x50, 0xfd, 0x73, 0x3d, 0x9e, 0x0e, 0xcb, 0xbe, 0x4c, 0x8b, 0xbd, 0x3d, 
0x6f, 0x0d, 0xca, 0x3e, 0x0e, 0x0b, 0x52, 0x3e, 0x4d, 0x61, 0xd1, 0xbe, 
0x57, 0xcb, 0x8f, 0x3e, 0xf0, 0x08, 0x08, 0x3d, 0x9e, 0xbf, 0xc9, 0xbe, 
0xa0, 0xc4, 0xcc, 0xbe, 0x91, 0x6e, 0xbd, 0xbe, 0xd2, 0x68, 0x4c, 0xbe, 
0x7e, 0xbc, 0x6b, 0xbe, 0x48, 0xe5, 0x6c, 0xbd, 0xa6, 0xbb, 0xb6, 0xbe, 
0x4c, 0xa1, 0x6f, 0x3e, 0x79, 0x48, 0xb0, 0x3e, 0x8e, 0x6e, 0x75, 0xbf, 
0xe0, 0x28, 0x66, 0x3c, 0x60, 0x99, 0xa5, 0xbe, 0xfd, 0xab, 0x48, 0xbf, 
0x97, 0x7e, 0x6c, 0x3e, 0x8f, 0x96, 0x7a, 0x3e, 0x5d, 0xbe, 0x5d, 0xbd, 
0x67, 0x4d, 0x92, 0xbb, 0x09, 0x62, 0x14, 0x3d, 0xb3, 0x2b, 0xcb, 0xbe, 
0xae, 0xd6, 0x1b, 0x3f, 0xe7, 0x1e, 0xaa, 0x3e, 0xe7, 0x04, 0x67, 0xbe, 
0xc8, 0x52, 0x14, 0x3d, 0x3f, 0xb9, 0x67, 0xbe, 0x46, 0x53, 0x3d, 0x3e, 
0x92, 0x03, 0xd0, 0xbe, 0xe1, 0x57, 0xa2, 0x3e, 0x58, 0x9b, 0x13, 0xbe, 
0xd9, 0x44, 0x1e, 0x3e, 0x23, 0x13, 0xad, 0xbe, 0x4e, 0x45, 0x7a, 0x3e, 
0x38, 0x15, 0xc7, 0xbe, 0x09, 0x3c, 0x09, 0x3e, 0xe8, 0x56, 0x2e, 0xbd, 
0xf2, 0xfd, 0xff, 0xff, 0x04, 0x00, 0x00, 0x00, 0x00, 0x02, 0x00, 0x00, 
0x10, 0xc2, 0x83, 0x3e, 0xec, 0x30, 0x10, 0x3d, 0x6a, 0x8d, 0xc8, 0xbe, 
0xad, 0xf0, 0x95, 0x3e, 0xc0, 0x55, 0xa5, 0x3d, 0xe6, 0x54, 0xb6, 0xbd, 
0x1f, 0x5f, 0xbd, 0xbe, 0x72, 0x2a, 0xd1, 0x3e, 0x4b, 0x17, 0x1b, 0xbf, 
0xa8, 0xa3, 0xf2, 0x3e, 0x10, 0xce, 0x41, 0xbe, 0xc8, 0x44, 0x5c, 0x3e, 
0x80, 0x54, 0xe6, 0xbe, 0xb8, 0xba, 0x2e, 0xbe, 0x63, 0xa6, 0xe2, 0xbd, 
0xc3, 0xfa, 0x09, 0x3d, 0x9c, 0x11, 0xfd, 0x3e, 0x4e, 0x41, 0x60, 0x3e, 
0x42, 0x09, 0x35, 0xbf, 0x6a, 0x4c, 0x00, 0xbf, 0x4c, 0x06, 0xca, 0x3e, 
0xfb, 0x9e, 0xea, 0xbd, 0xab, 0xb3, 0x06, 0xbc, 0x2a, 0x3e, 0x04, 0xbe, 
0xf8, 0x06, 0x2e, 0xbe, 0xe4, 0xde, 0xca, 0xbe, 0xec, 0x1a, 0xe4, 0x3e, 
0x00, 0xda, 0x88, 0x3b, 0x6c, 0x47, 0xce, 0x3e, 0x64, 0x51, 0xd3, 0xbe, 
0xaf, 0x10, 0x23, 0x3f, 0x97, 0x12, 0x8a, 0x3e, 0x78, 0xb7, 0xb3, 0xbe, 
0x74, 0x08, 0xc0, 0x3d, 0xcb, 0x65, 0x06, 0xbf, 0x01, 0xcd, 0x43, 0xbd, 
0x68, 0x9c, 0x2a, 0x3e, 0x36, 0x53, 0xf9, 0xbe, 0xfc, 0x4c, 0x79, 0x3e, 
0x17, 0x4e, 0xc8, 0x3b, 0x98, 0x6d, 0xb6, 0x3d, 0x10, 0xc8, 0x00, 0x3e, 
0xa8, 0x7d, 0x03, 0xbe, 0x18, 0x6b, 0x0e, 0xbe, 0x00, 0x00, 0x1e, 0xbd, 
0xc0, 0xde, 0xad, 0xbc, 0x62, 0x32, 0xe7, 0x3e, 0xd0, 0xa5, 0xf2, 0x3e, 
0x60, 0x25, 0x91, 0x3e, 0x0c, 0x5e, 0xe2, 0x3d, 0xbb, 0xd2, 0xb5, 0xbd, 
0x5d, 0x86, 0x52, 0xbd, 0x94, 0xb0, 0xdf, 0x3e, 0x12, 0x6b, 0x2b, 0x3d, 
0x68, 0x12, 0x1f, 0xbe, 0x7a, 0xdd, 0x79, 0xbe, 0x1c, 0x6d, 0x90, 0x3e, 
0x24, 0x15, 0x8a, 0xbe, 0x88, 0x65, 0x31, 0xbe, 0x00, 0x74, 0x32, 0x3e, 
0x90, 0xf0, 0xcb, 0x3e, 0xe0, 0x7d, 0x27, 0x3d, 0x05, 0x10, 0x07, 0xbf, 
0xa0, 0xb4, 0x70, 0xbe, 0x3c, 0xb8, 0xc8, 0xbe, 0xaf, 0x7c, 0x24, 0xbe, 
0xf4, 0x05, 0x7c, 0xbe, 0x89, 0xe3, 0x17, 0xbe, 0x98, 0x1b, 0x2d, 0x3e, 
0xa1, 0xb6, 0x1f, 0x3f, 0x5b, 0xc3, 0x92, 0x3e, 0x84, 0xbc, 0xc4, 0x3e, 
0x1e, 0x13, 0xab, 0xbe, 0x20, 0xd7, 0x39, 0x3d, 0xc4, 0x65, 0xd0, 0xbe, 
0xe8, 0x11, 0x18, 0x3e, 0xe8, 0x7e, 0xf7, 0x3e, 0x24, 0xeb, 0xed, 0x3e, 
0x1e, 0x54, 0xbd, 0xbe, 0x2c, 0xee, 0x35, 0x3f, 0xc0, 0x66, 0x33, 0x3d, 
0x16, 0xb8, 0x5c, 0xbf, 0xb6, 0x5f, 0x83, 0xbe, 0x81, 0x8a, 0xbb, 0x3e, 
0xd0, 0xfb, 0x29, 0x3e, 0xb4, 0xc9, 0x8b, 0xbf, 0x0b, 0xa8, 0x05, 0xbe, 
0xf4, 0x24, 0x5d, 0xbd, 0xe7, 0x33, 0x66, 0xbe, 0x40, 0xcb, 0xb1, 0xbe, 
0x50, 0x84, 0x70, 0xbe, 0xb0, 0x31, 0xc0, 0x3e, 0x4c, 0xfe, 0xb9, 0xbe, 
0x40, 0xf6, 0x76, 0x3e, 0x80, 0x71, 0x98, 0x3d, 0x40, 0xbd, 0x8f, 0x3e, 
0xe0, 0xe2, 0xa4, 0xbe, 0x9e, 0xdc, 0x02, 0xbf, 0xb3, 0xcb, 0x86, 0x3d, 
0x12, 0xa7, 0x05, 0xbe, 0x00, 0xb3, 0xaf, 0xbd, 0x61, 0x2c, 0x9f, 0x3e, 
0xf7, 0x9e, 0xd3, 0x3e, 0x4f, 0xa6, 0xe4, 0xbe, 0x90, 0xa0, 0x83, 0x3d, 
0xd8, 0xd6, 0x26, 0x3e, 0x64, 0x78, 0xa6, 0x3e, 0x40, 0x6c, 0x65, 0xbd, 
0xd8, 0xb2, 0x70, 0xbe, 0x30, 0x9e, 0x79, 0xbe, 0xba, 0xdc, 0xd4, 0x3d, 
0x1a, 0x58, 0xf9, 0xbe, 0x60, 0x23, 0x5a, 0xbe, 0x02, 0x6e, 0xe5, 0x3d, 
0xfc, 0x33, 0xfe, 0x3c, 0x19, 0x51, 0x8a, 0xbe, 0xfc, 0xa4, 0x93, 0xbe, 
0xe1, 0x25, 0x9f, 0x3d, 0xa9, 0x7f, 0xc9, 0x3e, 0x35, 0x10, 0x87, 0x3e, 
0x5f, 0x63, 0x91, 0xbe, 0x00, 0xce, 0xf7, 0xbc, 0xc8, 0xd8, 0x0a, 0xbe, 
0x68, 0x83, 0x55, 0xbe, 0xfc, 0x35, 0xcf, 0xbe, 0x40, 0x58, 0x85, 0x3e, 
0x6a, 0xf0, 0xcb, 0x3e, 0x06, 0xd8, 0x85, 0xbe, 0x00, 0x00, 0x06, 0x00, 
0x08, 0x00, 0x04, 0x00, 0x06, 0x00, 0x00, 0x00, 0x04, 0x00, 0x00, 0x00, 
0x80, 0x00, 0x00, 0x00, 0x99, 0xbf, 0x08, 0x3d, 0x16, 0xcf, 0xa1, 0x3f, 
0xd2, 0x83, 0x67, 0xbe, 0x66, 0xe1, 0x18, 0x3f, 0x4c, 0xe9, 0xb0, 0x3e, 
0x2d, 0x48, 0x72, 0xbf, 0xb3, 0x72, 0x08, 0x3e, 0xed, 0xb3, 0x62, 0xbf, 
0xbb, 0xfb, 0x9e, 0xbe, 0x69, 0x06, 0x82, 0xbd, 0x43, 0x6d, 0xf1, 0x3d, 
0xbe, 0x2c, 0x9e, 0x3e, 0x0c, 0x59, 0x6e, 0xbd, 0x71, 0x23, 0x7e, 0xbc, 
0x19, 0x35, 0x31, 0xbf, 0x2d, 0x06, 0x36, 0x3c, 0xef, 0x04, 0x76, 0xbf, 
0x25, 0xa0, 0x86, 0x3e, 0xc3, 0xde, 0x3c, 0xbd, 0x89, 0x98, 0xfc, 0xbc, 
0xa5, 0x9a, 0x2b, 0x3e, 0x7e, 0x85, 0x4b, 0xbe, 0x24, 0x14, 0x80, 0x3f, 
0xc1, 0x57, 0xc3, 0xbe, 0x53, 0x19, 0xdf, 0x3c, 0x2e, 0x5f, 0xdc, 0x3d, 
0xa1, 0xd8, 0x00, 0x3f, 0x71, 0xd3, 0x87, 0xbe, 0x72, 0x42, 0xdb, 0xbe, 
0xdd, 0x52, 0x5c, 0x3f, 0xca, 0x89, 0x8e, 0xbe, 0xed, 0x12, 0xc7, 0x3e, 
0x30, 0xf9, 0xff, 0xff, 0x34, 0xf9, 0xff, 0xff, 0x0f, 0x00, 0x00, 0x00, 
0x4d, 0x4c, 0x49, 0x52, 0x20, 0x43, 0x6f, 0x6e, 0x76, 0x65, 0x72, 0x74, 
0x65, 0x64, 0x2e, 0x00, 0x01, 0x00, 0x00, 0x00, 0x14, 0x00, 0x00, 0x00, 
0x00, 0x00, 0x0e, 0x00, 0x18, 0x00, 0x14, 0x00, 0x10, 0x00, 0x0c, 0x00, 
0x08, 0x00, 0x04, 0x00, 0x0e, 0x00, 0x00, 0x00, 0x14, 0x00, 0x00, 0x00, 
0x1c, 0x00, 0x00, 0x00, 0x40, 0x01, 0x00, 0x00, 0x44, 0x01, 0x00, 0x00, 
0x48, 0x01, 0x00, 0x00, 0x04, 0x00, 0x00, 0x00, 0x6d, 0x61, 0x69, 0x6e, 
0x00, 0x00, 0x00, 0x00, 0x05, 0x00, 0x00, 0x00, 0xe8, 0x00, 0x00, 0x00, 
0xa0, 0x00, 0x00, 0x00, 0x68, 0x00, 0x00, 0x00, 0x34, 0x00, 0x00, 0x00, 
0x10, 0x00, 0x00, 0x00, 0x00, 0x00, 0x0a, 0x00, 0x10, 0x00, 0x0c, 0x00, 
0x08, 0x00, 0x04, 0x00, 0x0a, 0x00, 0x00, 0x00, 0x0c, 0x00, 0x00, 0x00, 
0x10, 0x00, 0x00, 0x00, 0x01, 0x00, 0x00, 0x00, 0x01, 0x00, 0x00, 0x00, 
0x0d, 0x00, 0x00, 0x00, 0x01, 0x00, 0x00, 0x00, 0x0c, 0x00, 0x00, 0x00, 
0x66, 0xff, 0xff, 0xff, 0x10, 0x00, 0x00, 0x00, 0x00, 0x00, 0x00, 0x08, 
0x0c, 0x00, 0x00, 0x00, 0x10, 0x00, 0x00, 0x00, 0xe0, 0xf9, 0xff, 0xff, 
0x01, 0x00, 0x00, 0x00, 0x0c, 0x00, 0x00, 0x00, 0x03, 0x00, 0x00, 0x00, 
0x0b, 0x00, 0x00, 0x00, 0x01, 0x00, 0x00, 0x00, 0x04, 0x00, 0x00, 0x00, 
0x96, 0xff, 0xff, 0xff, 0x10, 0x00, 0x00, 0x00, 0x00, 0x00, 0x00, 0x08, 
0x10, 0x00, 0x00, 0x00, 0x14, 0x00, 0x00, 0x00, 0x86, 0xff, 0xff, 0xff, 
0x00, 0x00, 0x00, 0x01, 0x01, 0x00, 0x00, 0x00, 0x0b, 0x00, 0x00, 0x00, 
0x03, 0x00, 0x00, 0x00, 0x0a, 0x00, 0x00, 0x00, 0x02, 0x00, 0x00, 0x00, 
0x05, 0x00, 0x00, 0x00, 0xca, 0xff, 0xff, 0xff, 0x10, 0x00, 0x00, 0x00, 
0x00, 0x00, 0x00, 0x08, 0x10, 0x00, 0x00, 0x00, 0x14, 0x00, 0x00, 0x00, 
0xba, 0xff, 0xff, 0xff, 0x00, 0x00, 0x00, 0x01, 0x01, 0x00, 0x00, 0x00, 
0x0a, 0x00, 0x00, 0x00, 0x03, 0x00, 0x00, 0x00, 0x09, 0x00, 0x00, 0x00, 
0x03, 0x00, 0x00, 0x00, 0x06, 0x00, 0x00, 0x00, 0x00, 0x00, 0x0e, 0x00, 
0x16, 0x00, 0x00, 0x00, 0x10, 0x00, 0x0c, 0x00, 0x0b, 0x00, 0x04, 0x00, 
0x0e, 0x00, 0x00, 0x00, 0x18, 0x00, 0x00, 0x00, 0x00, 0x00, 0x00, 0x08, 
0x18, 0x00, 0x00, 0x00, 0x1c, 0x00, 0x00, 0x00, 0x00, 0x00, 0x06, 0x00, 
0x08, 0x00, 0x07, 0x00, 0x06, 0x00, 0x00, 0x00, 0x00, 0x00, 0x00, 0x01, 
0x01, 0x00, 0x00, 0x00, 0x09, 0x00, 0x00, 0x00, 0x03, 0x00, 0x00, 0x00, 
0x00, 0x00, 0x00, 0x00, 0x08, 0x00, 0x00, 0x00, 0x07, 0x00, 0x00, 0x00, 
0x01, 0x00, 0x00, 0x00, 0x0d, 0x00, 0x00, 0x00, 0x01, 0x00, 0x00, 0x00, 
0x00, 0x00, 0x00, 0x00, 0x0e, 0x00, 0x00, 0x00, 0x14, 0x05, 0x00, 0x00, 
0xbc, 0x04, 0x00, 0x00, 0x64, 0x04, 0x00, 0x00, 0x24, 0x04, 0x00, 0x00, 
0xe8, 0x03, 0x00, 0x00, 0xac, 0x03, 0x00, 0x00, 0x70, 0x03, 0x00, 0x00, 
0x14, 0x03, 0x00, 0x00, 0xc4, 0x02, 0x00, 0x00, 0x24, 0x02, 0x00, 0x00, 
0x84, 0x01, 0x00, 0x00, 0xe4, 0x00, 0x00, 0x00, 0x60, 0x00, 0x00, 0x00, 
0x04, 0x00, 0x00, 0x00, 0x3a, 0xfb, 0xff, 0xff, 0x00, 0x00, 0x00, 0x01, 
0x14, 0x00, 0x00, 0x00, 0x1c, 0x00, 0x00, 0x00, 0x1c, 0x00, 0x00, 0x00, 
0x0e, 0x00, 0x00, 0x00, 0x34, 0x00, 0x00, 0x00, 0x02, 0x00, 0x00, 0x00, 
0xff, 0xff, 0xff, 0xff, 0x04, 0x00, 0x00, 0x00, 0x24, 0xfb, 0xff, 0xff, 
0x1b, 0x00, 0x00, 0x00, 0x53, 0x74, 0x61, 0x74, 0x65, 0x66, 0x75, 0x6c, 
0x50, 0x61, 0x72, 0x74, 0x69, 0x74, 0x69, 0x6f, 0x6e, 0x65, 0x64, 0x43, 
0x61, 0x6c, 0x6c, 0x5f, 0x31, 0x3a, 0x30, 0x00, 0x02, 0x00, 0x00, 0x00, 
0x01, 0x00, 0x00, 0x00, 0x04, 0x00, 0x00, 0x00, 0x92, 0xfb, 0xff, 0xff, 
0x00, 0x00, 0x00, 0x01, 0x14, 0x00, 0x00, 0x00, 0x1c, 0x00, 0x00, 0x00, 
0x1c, 0x00, 0x00, 0x00, 0x0d, 0x00, 0x00, 0x00, 0x5c, 0x00, 0x00, 0x00, 
0x02, 0x00, 0x00, 0x00, 0xff, 0xff, 0xff, 0xff, 0x04, 0x00, 0x00, 0x00, 
0x7c, 0xfb, 0xff, 0xff, 0x40, 0x00, 0x00, 0x00, 0x73, 0x65, 0x71, 0x75, 
0x65, 0x6e, 0x74, 0x69, 0x61, 0x6c, 0x5f, 0x31, 0x5f, 0x31, 0x2f, 0x64, 
0x65, 0x6e, 0x73, 0x65, 0x5f, 0x36, 0x5f, 0x31, 0x2f, 0x4d, 0x61, 0x74, 
0x4d, 0x75, 0x6c, 0x3b, 0x73, 0x65, 0x71, 0x75, 0x65, 0x6e, 0x74, 0x69, 
0x61, 0x6c, 0x5f, 0x31, 0x5f, 0x31, 0x2f, 0x64, 0x65, 0x6e, 0x73, 0x65, 
0x5f, 0x36, 0x5f, 0x31, 0x2f, 0x42, 0x69, 0x61, 0x73, 0x41, 0x64, 0x64, 
0x00, 0x00, 0x00, 0x00, 0x02, 0x00, 0x00, 0x00, 0x01, 0x00, 0x00, 0x00, 
0x04, 0x00, 0x00, 0x00, 0x12, 0xfc, 0xff, 0xff, 0x00, 0x00, 0x00, 0x01, 
0x14, 0x00, 0x00, 0x00, 0x1c, 0x00, 0x00, 0x00, 0x1c, 0x00, 0x00, 0x00, 
0x0c, 0x00, 0x00, 0x00, 0x78, 0x00, 0x00, 0x00, 0x02, 0x00, 0x00, 0x00, 
0xff, 0xff, 0xff, 0xff, 0x08, 0x00, 0x00, 0x00, 0xfc, 0xfb, 0xff, 0xff, 
0x5e, 0x00, 0x00, 0x00, 0x73, 0x65, 0x71, 0x75, 0x65, 0x6e, 0x74, 0x69, 
0x61, 0x6c, 0x5f, 0x31, 0x5f, 0x31, 0x2f, 0x64, 0x65, 0x6e, 0x73, 0x65, 
0x5f, 0x35, 0x5f, 0x31, 0x2f, 0x4d, 0x61, 0x74, 0x4d, 0x75, 0x6c, 0x3b, 
0x73, 0x65, 0x71, 0x75, 0x65, 0x6e, 0x74, 0x69, 0x61, 0x6c, 0x5f, 0x31, 
0x5f, 0x31, 0x2f, 0x64, 0x65, 0x6e, 0x73, 0x65, 0x5f, 0x35, 0x5f, 0x31, 
0x2f, 0x52, 0x65, 0x6c, 0x75, 0x3b, 0x73, 0x65, 0x71, 0x75, 0x65, 0x6e, 
0x74, 0x69, 0x61, 0x6c, 0x5f, 0x31, 0x5f, 0x31, 0x2f, 0x64, 0x65, 0x6e, 
0x73, 0x65, 0x5f, 0x35, 0x5f, 0x31, 0x2f, 0x42, 0x69, 0x61, 0x73, 0x41, 
0x64, 0x64, 0x00, 0x00, 0x02, 0x00, 0x00, 0x00, 0x01, 0x00, 0x00, 0x00, 
0x08, 0x00, 0x00, 0x00, 0xae, 0xfc, 0xff, 0xff, 0x00, 0x00, 0x00, 0x01, 
0x14, 0x00, 0x00, 0x00, 0x1c, 0x00, 0x00, 0x00, 0x1c, 0x00, 0x00, 0x00, 
0x0b, 0x00, 0x00, 0x00, 0x78, 0x00, 0x00, 0x00, 0x02, 0x00, 0x00, 0x00, 
0xff, 0xff, 0xff, 0xff, 0x10, 0x00, 0x00, 0x00, 0x98, 0xfc, 0xff, 0xff, 
0x5e, 0x00, 0x00, 0x00, 0x73, 0x65, 0x71, 0x75, 0x65, 0x6e, 0x74, 0x69, 
0x61, 0x6c, 0x5f, 0x31, 0x5f, 0x31, 0x2f, 0x64, 0x65, 0x6e, 0x73, 0x65, 
0x5f, 0x34, 0x5f, 0x31, 0x2f, 0x4d, 0x61, 0x74, 0x4d, 0x75, 0x6c, 0x3b, 
0x73, 0x65, 0x71, 0x75, 0x65, 0x6e, 0x74, 0x69, 0x61, 0x6c, 0x5f, 0x31, 
0x5f, 0x31, 0x2f, 0x64, 0x65, 0x6e, 0x73, 0x65, 0x5f, 0x34, 0x5f, 0x31, 
0x2f, 0x52, 0x65, 0x6c, 0x75, 0x3b, 0x73, 0x65, 0x71, 0x75, 0x65, 0x6e, 
0x74, 0x69, 0x61, 0x6c, 0x5f, 0x31, 0x5f, 0x31, 0x2f, 0x64, 0x65, 0x6e, 
0x73, 0x65, 0x5f, 0x34, 0x5f, 0x31, 0x2f, 0x42, 0x69, 0x61, 0x73, 0x41, 
0x64, 0x64, 0x00, 0x00, 0x02, 0x00, 0x00, 0x00, 0x01, 0x00, 0x00, 0x00, 
0x10, 0x00, 0x00, 0x00, 0x4a, 0xfd, 0xff, 0xff, 0x00, 0x00, 0x00, 0x01, 
0x14, 0x00, 0x00, 0x00, 0x1c, 0x00, 0x00, 0x00, 0x1c, 0x00, 0x00, 0x00, 
0x0a, 0x00, 0x00, 0x00, 0x78, 0x00, 0x00, 0x00, 0x02, 0x00, 0x00, 0x00, 
0xff, 0xff, 0xff, 0xff, 0x10, 0x00, 0x00, 0x00, 0x34, 0xfd, 0xff, 0xff, 
0x5e, 0x00, 0x00, 0x00, 0x73, 0x65, 0x71, 0x75, 0x65, 0x6e, 0x74, 0x69, 
0x61, 0x6c, 0x5f, 0x31, 0x5f, 0x31, 0x2f, 0x64, 0x65, 0x6e, 0x73, 0x65, 
0x5f, 0x33, 0x5f, 0x31, 0x2f, 0x4d, 0x61, 0x74, 0x4d, 0x75, 0x6c, 0x3b, 
0x73, 0x65, 0x71, 0x75, 0x65, 0x6e, 0x74, 0x69, 0x61, 0x6c, 0x5f, 0x31, 
0x5f, 0x31, 0x2f, 0x64, 0x65, 0x6e, 0x73, 0x65, 0x5f, 0x33, 0x5f, 0x31, 
0x2f, 0x52, 0x65, 0x6c, 0x75, 0x3b, 0x73, 0x65, 0x71, 0x75, 0x65, 0x6e, 
0x74, 0x69, 0x61, 0x6c, 0x5f, 0x31, 0x5f, 0x31, 0x2f, 0x64, 0x65, 0x6e, 
0x73, 0x65, 0x5f, 0x33, 0x5f, 0x31, 0x2f, 0x42, 0x69, 0x61, 0x73, 0x41, 
0x64, 0x64, 0x00, 0x00, 0x02, 0x00, 0x00, 0x00, 0x01, 0x00, 0x00, 0x00, 
0x10, 0x00, 0x00, 0x00, 0x3a, 0xfe, 0xff, 0xff, 0x00, 0x00, 0x00, 0x01, 
0x10, 0x00, 0x00, 0x00, 0x10, 0x00, 0x00, 0x00, 0x09, 0x00, 0x00, 0x00, 
0x2c, 0x00, 0x00, 0x00, 0xc0, 0xfd, 0xff, 0xff, 0x1f, 0x00, 0x00, 0x00, 
0x73, 0x65, 0x71, 0x75, 0x65, 0x6e, 0x74, 0x69, 0x61, 0x6c, 0x5f, 0x31, 
0x5f, 0x31, 0x2f, 0x64, 0x65, 0x6e, 0x73, 0x65, 0x5f, 0x33, 0x5f, 0x31, 
0x2f, 0x4d, 0x61, 0x74, 0x4d, 0x75, 0x6c, 0x00, 0x02, 0x00, 0x00, 0x00, 
0x10, 0x00, 0x00, 0x00, 0x05, 0x00, 0x00, 0x00, 0x86, 0xfe, 0xff, 0xff, 
0x00, 0x00, 0x00, 0x01, 0x10, 0x00, 0x00, 0x00, 0x10, 0x00, 0x00, 0x00, 
0x08, 0x00, 0x00, 0x00, 0x3c, 0x00, 0x00, 0x00, 0x0c, 0xfe, 0xff, 0xff, 
0x2f, 0x00, 0x00, 0x00, 0x73, 0x65, 0x71, 0x75, 0x65, 0x6e, 0x74, 0x69, 
0x61, 0x6c, 0x5f, 0x31, 0x5f, 0x31, 0x2f, 0x64, 0x65, 0x6e, 0x73, 0x65, 
0x5f, 0x33, 0x5f, 0x31, 0x2f, 0x42, 0x69, 0x61, 0x73, 0x41, 0x64, 0x64, 
0x2f, 0x52, 0x65, 0x61, 0x64, 0x56, 0x61, 0x72, 0x69, 0x61, 0x62, 0x6c, 
0x65, 0x4f, 0x70, 0x00, 0x01, 0x00, 0x00, 0x00, 0x10, 0x00, 0x00, 0x00, 
0xde, 0xfe, 0xff, 0xff, 0x00, 0x00, 0x00, 0x01, 0x10, 0x00, 0x00, 0x00, 
0x10, 0x00, 0x00, 0x00, 0x07, 0x00, 0x00, 0x00, 0x1c, 0x00, 0x00, 0x00, 
0x64, 0xfe, 0xff, 0xff, 0x0f, 0x00, 0x00, 0x00, 0x61, 0x72, 0x69, 0x74, 
0x68, 0x2e, 0x63, 0x6f, 0x6e, 0x73, 0x74, 0x61, 0x6e, 0x74, 0x35, 0x00, 
0x01, 0x00, 0x00, 0x00, 0x10, 0x00, 0x00, 0x00, 0x16, 0xff, 0xff, 0xff, 
0x00, 0x00, 0x00, 0x01, 0x10, 0x00, 0x00, 0x00, 0x10, 0x00, 0x00, 0x00, 
0x06, 0x00, 0x00, 0x00, 0x1c, 0x00, 0x00, 0x00, 0x9c, 0xfe, 0xff, 0xff, 
0x0f, 0x00, 0x00, 0x00, 0x61, 0x72, 0x69, 0x74, 0x68, 0x2e, 0x63, 0x6f, 
0x6e, 0x73, 0x74, 0x61, 0x6e, 0x74, 0x34, 0x00, 0x01, 0x00, 0x00, 0x00, 
0x08, 0x00, 0x00, 0x00, 0x4e, 0xff, 0xff, 0xff, 0x00, 0x00, 0x00, 0x01, 
0x10, 0x00, 0x00, 0x00, 0x10, 0x00, 0x00, 0x00, 0x05, 0x00, 0x00, 0x00, 
0x1c, 0x00, 0x00, 0x00, 0xd4, 0xfe, 0xff, 0xff, 0x0f, 0x00, 0x00, 0x00, 
0x61, 0x72, 0x69, 0x74, 0x68, 0x2e, 0x63, 0x6f, 0x6e, 0x73, 0x74, 0x61, 
0x6e, 0x74, 0x33, 0x00, 0x01, 0x00, 0x00, 0x00, 0x04, 0x00, 0x00, 0x00, 
0x86, 0xff, 0xff, 0xff, 0x00, 0x00, 0x00, 0x01, 0x10, 0x00, 0x00, 0x00, 
0x10, 0x00, 0x00, 0x00, 0x04, 0x00, 0x00, 0x00, 0x1c, 0x00, 0x00, 0x00, 
0x0c, 0xff, 0xff, 0xff, 0x0f, 0x00, 0x00, 0x00, 0x61, 0x72, 0x69, 0x74, 
0x68, 0x2e, 0x63, 0x6f, 0x6e, 0x73, 0x74, 0x61, 0x6e, 0x74, 0x32, 0x00, 
0x02, 0x00, 0x00, 0x00, 0x10, 0x00, 0x00, 0x00, 0x10, 0x00, 0x00, 0x00, 
0xc2, 0xff, 0xff, 0xff, 0x00, 0x00, 0x00, 0x01, 0x10, 0x00, 0x00, 0x00, 
0x10, 0x00, 0x00, 0x00, 0x03, 0x00, 0x00, 0x00, 0x1c, 0x00, 0x00, 0x00, 
0x48, 0xff, 0xff, 0xff, 0x0f, 0x00, 0x00, 0x00, 0x61, 0x72, 0x69, 0x74, 
0x68, 0x2e, 0x63, 0x6f, 0x6e, 0x73, 0x74, 0x61, 0x6e, 0x74, 0x31, 0x00, 
0x02, 0x00, 0x00, 0x00, 0x08, 0x00, 0x00, 0x00, 0x10, 0x00, 0x00, 0x00, 
0x00, 0x00, 0x16, 0x00, 0x18, 0x00, 0x14, 0x00, 0x00, 0x00, 0x10, 0x00, 
0x0c, 0x00, 0x08, 0x00, 0x00, 0x00, 0x00, 0x00, 0x00, 0x00, 0x07, 0x00, 
0x16, 0x00, 0x00, 0x00, 0x00, 0x00, 0x00, 0x01, 0x10, 0x00, 0x00, 0x00, 
0x10, 0x00, 0x00, 0x00, 0x02, 0x00, 0x00, 0x00, 0x1c, 0x00, 0x00, 0x00, 
0x9c, 0xff, 0xff, 0xff, 0x0e, 0x00, 0x00, 0x00, 0x61, 0x72, 0x69, 0x74, 
0x68, 0x2e, 0x63, 0x6f, 0x6e, 0x73, 0x74, 0x61, 0x6e, 0x74, 0x00, 0x00, 
0x02, 0x00, 0x00, 0x00, 0x04, 0x00, 0x00, 0x00, 0x08, 0x00, 0x00, 0x00, 
0x00, 0x00, 0x16, 0x00, 0x1c, 0x00, 0x18, 0x00, 0x00, 0x00, 0x14, 0x00, 
0x10, 0x00, 0x0c, 0x00, 0x00, 0x00, 0x00, 0x00, 0x08, 0x00, 0x07, 0x00, 
0x16, 0x00, 0x00, 0x00, 0x00, 0x00, 0x00, 0x01, 0x14, 0x00, 0x00, 0x00, 
0x20, 0x00, 0x00, 0x00, 0x20, 0x00, 0x00, 0x00, 0x01, 0x00, 0x00, 0x00, 
0x40, 0x00, 0x00, 0x00, 0x02, 0x00, 0x00, 0x00, 0xff, 0xff, 0xff, 0xff, 
0x05, 0x00, 0x00, 0x00, 0x04, 0x00, 0x04, 0x00, 0x04, 0x00, 0x00, 0x00, 
0x20, 0x00, 0x00, 0x00, 0x73, 0x65, 0x72, 0x76, 0x69, 0x6e, 0x67, 0x5f, 
0x64, 0x65, 0x66, 0x61, 0x75, 0x6c, 0x74, 0x5f, 0x6b, 0x65, 0x72, 0x61, 
0x73, 0x5f, 0x74, 0x65, 0x6e, 0x73, 0x6f, 0x72, 0x5f, 0x34, 0x3a, 0x30, 
0x00, 0x00, 0x00, 0x00, 0x02, 0x00, 0x00, 0x00, 0x01, 0x00, 0x00, 0x00, 
0x05, 0x00, 0x00, 0x00, 0x02, 0x00, 0x00, 0x00, 0x20, 0x00, 0x00, 0x00, 
0x04, 0x00, 0x00, 0x00, 0xf4, 0xff, 0xff, 0xff, 0x0e, 0x00, 0x00, 0x00, 
0x00, 0x00, 0x00, 0x0e, 0x0c, 0x00, 0x0c, 0x00, 0x0b, 0x00, 0x00, 0x00, 
0x00, 0x00, 0x04, 0x00, 0x0c, 0x00, 0x00, 0x00, 0x09, 0x00, 0x00, 0x00, 
0x00, 0x00, 0x00, 0x09, 
};
const unsigned int brain_v2_tflite_len = 4612;
